[PAD]
[UNK]
[CLS]
[SEP]
[MASK]
!
"
%
&
'
,
-
.
/
0
1
2
3
4
5
6
7
8
9
:
;
=
?
a
b
c
d
e
f
g
h
i
j
k
l
m
n
o
p
q
r
s
t
u
v
w
x
y
z
~
¡
½
æ
ð
ø
–
—
’
“
”
…
園
官
志
放
方
杂
楽
追
##l
##i
##v
##e
##t
##n
##s
##o
##g
##a
##r
##d
##c
##x
##p
##h
##w
##y
##m
##u
##b
##k
##q
##9
##5
##f
##z
##j
##6
##0
##3
##2
##1
##4
##7
##8
##æ
##ð
##½
##ø
##he
the
##at
##in
##or
##es
##la
##er
##an
##is
##ar
pla
to
in
play
for
##on
##le
##re
##oo
##ou
of
##ing
##ve
##as
at
##ow
##ist
th
##ic
##ook
##il
##om
##al
##ur
##nd
mo
##vi
is
on
##dd
wh
##ate
book
##ant
add
me
##en
movi
##est
##ind
what
my
ne
##it
find
##ut
##list
playlist
sh
st
fr
##ive
##ion
this
##her
rate
be
##ra
we
movie
from
##ill
##im
show
##nt
##ck
##ast
##us
##ec
and
##et
##am
##ig
##ot
##ather
##ed
weather
by
po
##ke
##int
out
##se
it
##um
will
##aur
give
rest
##our
restaur
restaurant
##el
##ation
##igh
sc
al
##un
##ay
##ars
ch
##ab
want
##erv
##ol
li
se
an
can
mus
##ong
music
cur
##ine
##du
##rent
##ch
current
stars
sche
schedu
point
forec
##ies
forecast
##lo
##th
song
points
playing
##able
tim
theat
like
are
table
alb
##ad
album
##ent
##st
tra
##art
##ood
you
movies
##led
ar
sp
res
te
##ith
##op
##ce
##ia
som
##ase
20
##ir
##ie
##ove
whe
##id
with
tw
##ag
need
##res
##ight
clo
that
##ss
cal
now
am
ple
please
##ervation
sou
reservation
##ouse
one
##ark
de
##ree
some
called
four
schedule
##xt
##if
get
near
##ver
##ame
track
theatres
he
##ld
re
ro
##les
##ly
##and
pe
br
cine
nove
house
tun
19
##ating
go
time
##ub
##ma
##ers
her
##ated
novel
spot
where
put
##ak
##ople
people
rating
two
##og
anim
list
new
##ian
tune
five
three
##ell
serv
##os
##ond
times
##to
##ms
animated
part
fil
ser
pa
schedules
ma
##ph
##land
here
look
top
col
lo
##ro
wor
##ain
art
##ix
##ure
##ould
films
gr
party
##ul
##aga
saga
tv
##ry
##ct
##ven
neigh
neighb
##ter
cinema
##ron
##ero
series
artist
sound
there
##reat
con
ess
##ard
##ap
see
##ue
##ity
##ge
serves
##ip
showing
game
##book
##ound
essay
last
##ass
la
text
jo
close
textbook
zero
area
nearest
park
min
when
##ber
##ich
clos
war
bar
##all
best
closest
bl
mar
##hood
hear
theatre
##by
ph
tell
##ict
pop
wat
ind
hot
##now
sec
##tra
far
would
##fe
rated
mon
going
hour
##per
##ick
cla
nation
chill
##ek
##ance
##ish
##ronic
minut
tr
man
ye
##ide
pm
##son
national
le
soundtra
soundtrack
ta
##te
twent
##ty
watch
day
ca
##vis
love
##ne
around
neighbor
su
##zz
##ild
co
com
up
##ment
##ogra
food
##vil
##ount
week
chronic
how
##ib
##arch
rock
work
ten
##ort
fe
ha
##na
sa
##ord
second
##ties
##co
##ess
##lar
eight
##ograph
chronicle
10
car
##hing
eat
songs
da
##ath
##ore
cold
##lack
island
201
no
pr
##ug
search
##ary
high
##tal
##orm
##own
trail
##ory
##dy
202
##de
nearby
looking
creat
gu
##hn
ste
203
cl
##day
place
pict
un
##vent
do
##ley
##ican
next
state
brass
picture
onto
##erie
warm
brasserie
ele
six
phot
##ac
##out
##ust
pub
##ina
trailer
photograph
##way
##vision
city
dist
##man
##ite
tele
snow
seven
within
as
bo
good
##ier
##ular
nine
##ez
##ice
##its
television
wal
##ert
night
metal
##ville
not
popular
class
ja
mi
##ire
##ime
neighborhood
lat
nor
##ition
paint
ap
wild
##ther
##mas
##ething
##unk
##ster
painting
or
vide
##io
##ah
something
##ify
hours
classic
cor
sun
##erve
reservations
video
rain
##een
any
spotify
highly
##one
##ool
thir
amer
loc
john
##ren
great
has
##other
el
par
same
val
##ple
##ect
tit
wom
##oc
##oug
all
##fl
##ous
tem
200
minute
din
##ton
##ang
which
reserve
make
af
north
ent
fif
sw
##me
##uck
##oove
##ings
##ourhood
groove
neighbourhood
free
live
twenty
american
ep
hits
##ew
net
years
taver
ac
bal
des
en
sy
##gle
##king
##ern
##iss
south
listen
che
fa
##ny
##ff
##unes
count
fol
##ll
##ik
##tim
##ner
##che
##por
clock
ad
gre
rec
si
##ivi
##itt
chr
##tern
##flix
netflix
ab
jan
##ach
off
itunes
minutes
wind
##ial
##izz
##ep
##ning
##mo
##lad
today
sevent
indie
weeks
black
goo
let
##iv
##iver
shark
star
start
199
islands
##ho
##ora
tom
world
cr
nat
pre
##ud
life
##age
soul
##ube
google
dec
zv
##pen
##ise
##ons
##ony
##ooq
colder
zvooq
##ack
##pan
another
month
ex
fm
##qu
##att
##las
chant
deez
gets
year
women
deezer
es
know
mc
##ts
##tube
##mber
##ica
only
youtube
titled
dance
if
##ans
storm
country
hol
jun
your
##row
##ress
##ife
chilly
twenties
corpor
sixt
corporation
ge
jam
##ues
##ery
197
have
##wn
##fm
195
lastfm
days
##ivity
bu
##ey
##uary
##0s
clou
dis
nin
slack
##house
##heart
##ino
conc
creative
hist
mor
pand
use
##zing
##here
##ats
into
##oom
freezing
ballad
slacker
gen
open
##night
##ace
##und
##ins
##eria
##ash
##ico
##erves
seconds
temper
##times
pandora
bur
har
hal
hum
showtimes
distance
jazz
deserves
west
##iz
##va
##nes
##pe
##ana
em
iheart
jour
qu
##where
##uc
##ank
##ome
move
##amp
spr
cinemas
value
11
east
sk
##br
##ink
death
reg
hotter
cafe
walking
##plex
sym
record
bre
bra
ed
mag
mount
wa
##ean
##away
##my
##inc
str
lake
blues
creativity
fl
gam
pro
vime
##ta
##ga
##bia
theaters
##ade
heart
198
chillier
##teen
warmer
christ
symph
vimeo
cour
del
hel
lou
punk
sam
should
cineplex
##ertain
entertain
ninet
12
mal
red
san
was
##mer
melo
##ction
neighboring
saint
folk
entertainment
name
##iel
##wood
##bo
##are
##oup
##ower
##ical
white
fourties
faraway
latin
symphony
melody
50
cent
cro
gir
nam
ver
##life
##oor
##cl
##mon
##unt
theme
##ork
##ota
196
##iana
colle
greatest
##ough
geor
half
girl
ant
di
dra
fall
fire
land
mart
right
river
##ys
##ka
##len
most
newest
##ull
dinner
tavern
dr
hill
she
##ates
##ese
##nder
##ens
sep
tea
road
##erson
sup
wildlife
fifties
fog
que
so
##cast
##ha
##bur
##orn
##ream
##oust
pos
##old
serving
paul
eighties
thirties
location
seventies
sixties
humid
movement
21
aug
gra
hop
hip
old
##ves
##gin
##ri
##ps
##wa
##ful
##fall
inf
##ily
##ush
grand
##ney
elect
eleven
temperate
named
bab
ke
over
per
pet
us
##nal
##orrow
##esh
who
##ence
##ama
sch
workout
starting
court
position
13
bak
even
may
room
sing
tur
vir
##go
##ffe
##ott
read
rob
##iano
group
check
down
just
king
mid
pur
##rop
##cap
##mp
##uch
##erto
##anc
##red
story
souther
tunes
##ible
carol
apr
classical
history
mountain
##ffee
southern
ii
jon
ra
rom
##nie
stre
##ions
ref
blizz
##ugh
green
months
help
evening
blizzard
16
bon
bir
cu
ear
fir
hand
ok
pl
under
##ral
##mark
##ba
##ument
take
coffee
feel
distant
taverna
acoust
journal
spring
baby
acoustic
bill
cond
ir
litt
mill
mich
miss
oc
pool
son
tal
##low
##ng
##ude
##asc
##storm
step
tomorrow
martin
street
condition
aut
big
back
jer
ll
ter
york
##ler
##ile
##ox
##gy
##uk
##fet
##ors
##ara
##als
##vid
##ena
##olog
##ada
##str
##ews
about
nature
regga
little
15
don
dark
fast
ju
pat
pizz
power
ty
van
##ness
##ale
##ca
##ane
##ania
##sey
child
##ado
dead
somewhere
##ific
tracks
truck
does
nineties
##ield
##burg
midnight
17
cam
dak
ever
gast
mas
sum
##uge
think
##illa
added
##ited
bel
beach
##idge
loews
blood
mary
mont
steak
eng
espan
cloudy
virgin
refuge
first
ag
ba
but
cap
doug
end
funk
hard
kid
lu
pal
ret
sur
wy
wish
##lor
##ael
##jor
##inson
##lex
##ene
char
ang
hea
cons
trip
##ibb
2016
after
windy
magic
gaming
carolina
22
ala
cle
fren
ho
id
mer
mic
mad
sle
##ving
##sh
##ger
##cy
##press
intern
##urr
##ures
##ural
mex
stu
##oll
young
spa
amc
law
parking
compan
feb
david
diner
cloud
cross
##ropub
dakota
gastropub
dig
ga
gar
home
light
our
person
way
##ious
##sy
##oon
##pos
##ble
##ky
##law
##ison
town
fore
med
bet
##eth
sea
##ades
blue
hotel
secre
cafet
hail
snowstorm
latest
classics
fair
##ansas
james
braz
georg
august
overcast
school
conditions
summer
french
company
cafeteria
ber
cra
dj
fox
giv
jul
na
other
piano
sm
sat
ul
wr
##lin
##gon
##be
##fect
##field
##ano
forest
##let
##istan
##ury
mem
##enn
fresh
##ents
##ifi
joint
##bert
2017
united
local
johnson
concerto
gener
break
christmas
bakery
reggae
ak
batt
cry
dick
mark
nort
oh
pull
rad
sal
ut
win
##val
##con
##park
##ham
##men
##ann
##oot
##ality
##ette
chick
##ste
twel
needs
##reek
##tober
marc
march
##ography
boy
##eenth
advent
january
suppos
earth
october
##ascar
mexico
brazil
giving
supposed
fi
fin
gla
ham
kent
long
sol
sand
##tion
##oa
##od
##cific
##hy
##han
##ya
##ona
##ows
thr
##ics
mejor
pol
##umn
##unch
##ady
##iend
##iday
rep
revi
ros
pacific
mac
indoor
##ments
guest
jack
valley
samoa
humidity
##cape
cuis
michael
##ology
every
steakhouse
sleep
18
fut
gho
gold
hall
oct
pu
pass
port
rus
rich
sant
smo
wint
##ds
##ward
##zy
total
##onia
##ister
##ald
sha
##use
##ett
post
seating
seats
##anda
bro
color
snowy
snowfall
thirteen
swe
acc
follow
stormy
disc
morning
sky
louis
autumn
espanol
kids
internet
forever
chicken
ghost
00
av
bay
cast
dream
gl
im
ka
mil
pra
ri
sort
vol
##ov
##que
##ft
##isc
inn
incl
instr
fort
meal
myster
##ita
frank
beat
being
##ella
churr
devil
##iff
phil
lee
##ache
walk
chris
dece
buy
disco
malco
coffeehouse
##ascaria
cuisine
winter
include
instrument
churrascaria
air
ass
aust
bist
ben
creek
er
fre
fam
hor
hit
hark
hap
ker
kar
los
mom
more
run
rap
soc
vib
##ling
##lic
##ila
##vy
##ea
##gr
##door
##cion
##bb
##bers
##jo
their
##ini
##ories
##vious
outdoor
##ida
amco
rose
##aki
conn
##ips
nationalpark
100
nov
2034
midd
mike
sunny
aftern
holly
june
##mont
queen
pizzeria
georgia
twelve
sweet
following
december
bistro
afternoon
90s
act
boo
dom
found
hy
je
jim
ky
oy
rel
wood
wifi
##light
##vor
##sw
##gan
##get
##pi
##pa
##port
##ua
##ford
##za
##ative
##ines
##esia
##lan
##lau
##leas
##rew
##asy
thom
##urn
##enc
whats
friend
##ign
##vers
brook
##ult
##tember
febr
caribb
nothing
##ucky
previous
september
april
jersey
july
angel
##pression
battle
through
february
caribbean
25
26
30
cat
cher
dow
dip
ey
fal
his
hund
ima
kind
key
much
ol
oper
ode
por
tre
ven
##iam
##ient
##gar
##py
##yn
##ze
##ince
##ism
##ason
##owa
##ille
##ddy
shad
states
##hern
bea
##ntown
##key
##ump
cha
scheduled
spir
space
depression
hero
suns
locate
woman
temps
natural
quality
hills
foggy
douglas
heaven
dickinson
northern
richard
colorado
oyster
hundred
14
23
24
bow
dir
die
eur
fish
lord
lunch
lady
mast
mars
pres
psy
ur
##ola
##ko
##fth
##fore
##zer
##lax
##ere
int
att
##aly
men
before
poss
altern
sex
sele
##inea
##chase
theater
##ston
##ando
peace
brit
cinemark
november
##akes
lost
##gend
barb
clar
legend
sud
comm
noon
princ
prince
2024
guinea
club
rainy
para
title
afr
favor
lets
histor
century
george
girls
perfect
purchase
terr
general
kentucky
future
harkins
vibes
connect
imax
odeon
coo
cool
du
fine
got
mat
mak
matt
ni
nig
past
rho
rhy
sher
ts
tree
wisc
##iet
##ied
##ium
##van
##nge
##ses
##rich
##den
##cle
##min
##more
##ki
##hed
##ator
##ature
##ising
tod
##oma
moon
mother
meg
##esta
stra
bey
##see
william
##ations
ann
musica
##lock
##thm
tex
delaw
releas
relax
robert
brother
god
news
conf
jose
##iction
indian
come
2030
goodrich
johnny
##timate
##onsin
escape
jams
springs
lounge
electronic
jones
engl
secret
marcus
repub
smoking
discography
instrumental
austral
hollywood
dipson
spirit
sunset
cooper
wisconsin
delaware
70s
alas
case
could
fla
hell
hunt
il
ko
ms
mr
mir
ru
rush
rising
sl
sar
sil
tan
vie
very
wond
##ij
##ior
##em
##dades
##yle
##ban
##ball
##back
##lah
##anna
tonight
##vel
##icos
met
##itar
##itch
##itche
##ute
short
stone
stories
##ech
##ami
##sel
##ume
chap
##thing
ark
calif
amuse
fourteen
real
##less
brian
novedades
##osh
film
pap
colum
##aplex
laund
joe
coming
##essen
ash
bob
2003
sword
journey
center
vermont
falls
elevenses
mills
type
virginia
return
radio
##stein
brazilian
glass
russ
mystery
family
happy
foundation
downtown
europ
megaplex
texas
english
republic
amusements
laundry
27
bor
dur
evil
ger
iron
jean
kore
lot
luc
mt
mu
mur
mond
nice
oster
pick
ram
rid
sla
smas
sister
vinc
wol
##vin
##town
##gers
##air
##rick
##rise
##cc
##case
##mos
##ks
##ji
##ja
##inal
##ange
##anish
##reen
##asot
##aska
than
thing
##omb
##itled
##ets
##eder
chips
##erville
liber
##chi
##lob
spanish
##ights
deep
##ctuary
minnes
mann
suena
cobb
tennes
fear
##hington
dave
2026
2020
guitar
steve
univer
orig
third
entitled
##ikos
mcc
1975
concent
temperature
sanctuary
washington
collect
collection
supper
##ornia
##ughter
hands
billy
tales
children
##eneg
ultimate
adventures
santikos
castle
kerasot
rhythm
beyond
view
wonder
california
osteria
minnesota
tennessee
kerasotes
02
07
80
ara
alex
bi
bad
cy
cre
cop
camp
dar
dub
danc
funt
feder
gren
ice
imp
iowa
jen
ken
kansas
late
lam
mind
made
nv
nh
ny
roll
sin
sab
squ
tu
tar
vo
va
wil
##ience
##ns
##ova
##ai
##au
##ris
##ric
##ration
##rict
##der
##ped
##we
##wan
##yan
##mar
##ula
##uel
##bor
##fast
##heast
##atessen
inc
##leg
##icatessen
##ales
##urs
mel
mell
still
franc
friday
##ima
##usion
andrew
##ouri
##elic
##ighth
scott
season
arg
##ief
##ago
call
heights
rem
brown
bridge
service
palau
max
##lands
worth
##ronesia
cont
warren
mariana
indiana
##icky
fever
dawn
##athan
district
app
rainfall
##ocus
fifth
fifty
seventh
1958
delicatessen
drafth
robin
birth
plitt
again
surf
alamo
micronesia
digster
members
breakfast
louisiana
midday
historic
rhode
williams
alaska
arkansas
columbia
vincent
drafthouse
06
away
bot
dor
dan
det
ev
ec
est
fest
father
fun
fac
gate
hi
ks
kir
pot
sim
tie
tak
wall
##lis
##line
##ira
##ee
##tt
##rat
##dom
##core
##pect
##hall
##uce
##bu
##bre
##bama
##ken
##ject
they
##ores
##aning
##isa
##isco
too
tour
tony
form
##oni
##lean
##asa
##icut
##oming
##via
myth
##ito
##uts
##ution
bear
showcase
##amount
##igan
##inton
screen
##olid
seat
##cha
trap
arm
arcl
##iro
calm
roy
##lyn
goes
##uba
mach
##road
sounds
showings
water
clas
super
comp
2025
2022
2035
2033
latino
anywhere
##oney
paris
paramount
cheese
adam
greg
exit
sixteen
concert
harry
wave
drive
infin
using
romance
missouri
##uki
montana
charl
consolid
glory
volume
running
alternative
african
connecticut
joseph
during
smash
mellow
arclight
consolidated
09
40
48
80s
award
band
ct
cart
came
card
cream
den
dog
eighth
foot
focus
ia
ill
kn
ku
kiss
les
lind
lakes
md
might
mass
ore
pier
ren
ray
rico
sel
tay
vi
vict
vio
wi
wars
wife
##tor
##ting
##ole
##gu
##ged
##rd
##don
##pt
##well
##work
##yr
##yer
##uff
##hel
##hen
theory
##ata
##atar
ins
##lene
##rey
throw
thurs
##view
##dden
##ants
##ense
never
nether
nebr
##iting
finds
##uth
sho
fried
bell
##ece
##echn
##otte
poly
##keasy
##ely
##ello
##une
##una
china
living
##ential
##stone
train
spec
spea
##idence
##ager
head
reb
bring
##ersville
serbia
lovers
indon
##isha
tale
sund
davis
2015
2011
prop
2023
2021
2036
2032
2037
##ways
apart
sunrise
anything
thirty
2000
fifteen
epic
seventeen
1999
regal
project
central
landmark
inform
peter
talk
monteneg
heavy
secrets
adventure
puerto
jeff
clark
favorite
todo
european
borough
monday
funtime
federated
machine
taylor
thursday
netherlands
nebraska
speakeasy
montenegro
04
28
8th
ast
bh
bah
cow
cab
dc
dal
edd
fat
fant
fight
fern
fiction
gas
glob
hat
hur
hamp
ian
jar
kr
kb
kill
kings
las
lim
line
mj
mix
oce
pw
pan
rou
ring
rand
rac
sn
sd
slo
sons
tn
ve
villa
wag
were
yo
zen
##ls
##vinc
##ex
##ef
##sky
##oy
##gie
##gue
##ao
##ror
##ros
##rix
##da
##date
##dale
##come
##ying
##ux
##bi
them
##inn
##ari
plays
forcast
##ont
##ouble
##ved
things
##ices
##ility
##ura
mod
once
##ites
wel
well
andy
##amond
##edy
scar
always
cham
choc
must
##duc
currently
##sta
##stal
ariz
spain
teen
without
amor
fourth
##ifer
rod
animal
##ellow
loves
essential
warri
##bye
##icted
sugar
cover
##essions
10th
daily
2018
noise
price
2027
2028
guy
2038
clinton
doct
body
goodbye
walt
america
epis
1991
1997
##uda
exper
##quel
1970
build
genre
edition
provinc
hearts
nineteen
college
diamond
##wai
##wait
turn
kingdom
birds
oklah
darkness
maryland
cleaning
stuff
gave
fairy
fiesta
polit
review
broad
thirteenth
philip
##ground
activity
domin
relig
thomas
friends
cherry
shadow
niger
australia
hunter
sarah
russia
picks
##heastern
argent
clasicos
infinite
kuwait
oregon
pierre
throwback
global
ocean
arizona
oklahoma
08
43
7th
bla
bou
bass
ball
bone
cant
cot
cass
cash
dine
did
dang
ext
ene
econ
fur
fab
fusion
gil
gay
gab
gard
glen
hang
honey
jes
jew
kh
kan
kur
kitche
lop
mis
nu
nj
nak
ow
own
pen
pure
ron
roo
ridge
sx
sub
side
techn
um
uk
unt
vis
zam
##lson
##vol
##ters
##time
##so
##sa
##su
##ria
##pher
##pson
##yd
##mes
##ming
##bl
##ker
##fin
##father
##zen
##hes
##iny
##ori
##lant
##anne
##aro
##lee
##omy
##ommo
##urday
##nda
##ester
nev
shop
stat
station
stop
style
##raine
wee
##illes
##cken
##eton
##etta
##amer
##inth
##ational
science
chic
##ables
##los
##load
##tha
##adise
##adines
##oodle
spe
tears
##ider
amb
heat
reme
ross
##aker
##phin
loving
##ross
##uela
lazy
joy
clay
trans
manh
cake
comple
sac
2019
2010
2029
##acy
##acon
##acao
box
boss
boys
##ierra
nightm
paradise
2006
2007
##ched
1996
1993
worlds
crown
pred
##udi
holiday
junction
1973
1959
1951
##inois
ballads
burk
emily
edge
string
flor
prof
1981
christian
verano
dragon
lands
drum
##bury
hipster
grandfather
electro
keep
reading
robot
justice
rail
romant
bird
luis
paly
retro
wyoming
alabama
##shire
##cyc
study
medit
saturday
salv
solid
sandw
revival
hallow
accommo
dreams
thompson
brooklyn
dirty
master
psyched
attic
possi
possible
releases
korea
universe
arabia
alexand
copy
dancing
grenadines
remix
exitos
football
illinois
information
eddie
hampshire
mjr
welcome
provincial
sxsw
accommodate
01
00s
52
90
ah
aw
az
ace
bp
bul
bern
bank
bache
ci
cit
cut
cong
cir
casa
dest
dol
dish
div
et
eth
etern
educ
flo
fly
fons
full
gun
gang
hon
hom
hen
hus
hong
hood
jenn
kel
kos
kick
knight
lor
lon
lec
lab
lyn
mp
mut
nd
nc
nic
nich
nico
nuc
nathan
od
om
oak
pil
pig
pir
pug
rum
say
site
sens
tam
uz
vel
wine
wiz
yellow
##li
##lia
##ieth
##vina
##emp
##tain
##nat
##sen
##ok
##aire
##room
##down
##can
##pp
##pop
##pton
##hic
##wind
##mi
##uv
##bs
##bour
##bab
##band
##bek
##fa
##zania
##zaki
##atu
##atin
##atia
##iness
##orial
##lays
##ani
##ished
plan
togo
touch
##lear
##lena
##reation
##oun
##outh
atmos
##ista
thie
thous
##icial
##ils
##omi
##alia
moore
whis
whit
booking
meet
nelson
shall
stud
stress
france
bed
beh
begin
##illy
shown
##aster
##oto
##eline
##elia
##eless
score
##unge
chin
chas
##olf
##olate
lives
cand
cancion
albania
##step
traba
travel
20th
bruce
mah
##rolean
gran
grill
ground
##ards
##ippi
##berg
warning
india
monument
leg
leon
tai
twentieth
comedy
works
haw
hawai
saudi
##ession
eighteen
carp
2013
2012
highway
cliff
union
##icane
eleph
sixth
##ezuela
miquel
organ
##aho
corn
sunsh
parc
parents
2009
2002
2004
encyc
##issippi
face
grey
recreation
##ives
tommy
prefect
express
##lash
junior
1954
ninos
##under
human
jazzy
western
emp
eastern
strong
1988
punks
##ctions
##box
1966
1962
1964
drag
falling
soft
electric
kevin
##capes
cup
irish
michigan
mississippi
jerry
patrick
tyrolean
cape
charles
crossroad
##kyo
betty
smith
wright
memorial
crystal
ohio
final
passion
totally
broken
riley
assign
eric
middle
eye
eyes
venezuela
shadows
beaut
chaos
heroes
24th
dirt
masters
marshall
preserve
psych
urban
british
sudan
commute
princess
released
relaxing
silver
tanzania
##self
original
concentration
dubstep
wilson
surface
carter
special
modern
chocolate
essentials
doctor
enemy
hanging
kitchen
naked
ukraine
until
zambia
nevada
speed
nightmare
burkina
florida
palylist
sandwich
halloween
possiable
bpm
husband
nuclear
uzbek
thousand
trabajo
miquelon
sunshine
encyclo
uzbekistan
05
3rd
9th
age
ade
ava
bas
bos
bach
block
cook
cena
der
dam
dress
eg
equ
fer
gi
gh
gy
gary
gates
hind
hurr
iv
jr
jap
jord
kal
kim
kam
lay
lond
lul
lank
mn
mh
mant
maur
mong
mand
nt
nik
nash
ninth
ot
pow
pic
pel
pers
pak
pul
ran
round
rise
rare
ribb
ricky
sad
sir
sell
sri
sign
ti
tx
tus
tart
tres
try
treat
tap
via
vier
vamp
wv
wanda
ya
yam
ze
zea
##iation
##iero
##vak
##end
##ems
##elar
##ten
##theastern
##ost
##over
##gs
##gard
##ghan
##af
##az
##ru
##ran
##rus
##rol
##rison
##dia
##cu
##cher
##cel
##pl
##phe
##par
##pel
##hi
##hist
##hip
##wat
##wor
##yo
##mad
##ual
##uay
##uatu
##bow
##bell
##kin
##kland
##for
##fer
##food
##fly
##form
##jer
##40
##het
##hem
##head
then
##orpor
##orphin
##lay
##lam
##lace
##laby
##errat
##anese
##arry
tow
tokyo
played
##lem
##lent
##oux
##inger
##vell
thai
##omic
##ali
##alian
##uras
mol
mold
##dding
##ante
neo
##iti
##ital
##utch
shine
shoot
shores
stand
fry
front
##ione
##iones
beast
beats
##ram
##rain
##racion
web
##iment
##nth
##cker
##astian
##uset
anderson
##etos
poems
##kend
##sell
italian
##els
scr
ali
alone
##ung
chal
chad
##olo
lies
seb
anna
musical
##thur
##ador
##adian
##enton
##sts
youth
##ledge
arch
armen
arthur
rese
##opper
2040
##ires
##irie
##oven
##ident
##ague
##sson
southeastern
dear
getting
##vera
heal
heath
helen
reed
revol
rober
brand
brunch
gods
spotlight
main
maine
maid
malays
colony
lob
grime
coney
conex
##ipp
pho
waters
indies
monts
trop
trance
trib
trouble
manage
leban
##tem
coast
comes
weekly
chronicles
rocks
##essa
daughter
2014
##ugged
guad
steven
steps
2039
2031
unc
##venth
eleventh
nights
jaco
miami
apple
wildern
corner
eliz
2008
##anger
afghan
swed
desert
##ikov
##chen
##porary
##itts
jane
office
official
window
seventeenth
##ivers
crash
soulful
expect
##qua
##attan
mcdon
holy
holmes
sixteenth
1974
moroc
burn
##nesia
brad
waiting
flow
flight
flower
games
course
##body
croatia
anth
grace
pete
whole
baker
singer
download
mountains
greenland
bones
bonaire
miller
reggaeton
pizza
vanuatu
camino
belg
endorphin
palm
angry
conservation
afterwork
idaho
michel
garage
garrix
seafood
satan
##ified
##anni
fiji
18th
shake
image
miles
prairie
innoc
horse
karl
moments
##ences
catch
falkland
opera
trey
attack
peaceful
sudamer
terror
duetos
gothic
pastelar
##iety
confidence
australian
papua
ashley
bobby
##cci
concentracion
collective
wondering
wonderful
square
voices
##pedia
incorpor
francisco
birthday
against
facility
charlie
awards
cardio
viola
polynesia
indonesia
sunday
randy
slovak
village
warrior
waltz
episod
political
broadway
gabon
lopez
roots
##pheric
##lantic
remember
manhattan
complete
predicted
salvador
psychedelic
bachelor
fonsi
wizard
atmospheric
thieves
behind
beginning
canciones
taiwan
prefectural
encyclopedia
hurricane
jordan
london
lullaby
mongol
ntc
viernes
zealand
conexiones
montserrat
management
wilderness
sudamerica
pastelaria
incorporate
03
32
45
44
4th
56
88
ax
ay
aland
azer
bat
ban
ble
bol
blo
bound
buck
bush
bott
bomb
bacon
cz
cou
cay
cub
coup
crew
dre
dian
dix
diff
dying
eff
emo
fu
fred
flash
gw
gon
gib
hay
hir
hag
hond
hank
houst
hilla
ig
ire
ide
icon
jill
jess
josh
kil
kong
kitts
low
len
lion
laur
llo
lang
luck
lamp
lisa
mun
mine
mort
mash
mama
nm
nar
nicky
noodle
os
oz
oly
osts
pine
pip
path
patt
press
penn
pump
qatar
rh
rat
rub
ride
rings
set
sie
sard
sings
sold
sush
sals
sense
sessions
sierra
tg
tat
til
test
trent
ug
una
var
vick
vida
ward
wick
zim
##iat
##ique
##vd
##vla
##vest
##ele
##tle
##ned
##nia
##side
##suck
##ging
##run
##rian
##cer
##cra
##cus
##pin
##plor
##hol
##hara
##win
##wis
##ween
##yama
##mie
##muda
##master
##ui
##bra
##bus
##bel
##bie
##bath
##born
##kins
##ktor
##fort
##foot
##zuki
##je
##jik
##ati
##ativ
##inian
##inho
##orra
##oria
##orando
##esville
##lac
##lade
##erk
##any
##anmar
plac
playlis
ford
force
##ingo
##ington
##vet
##vey
##owd
thorn
thunder
##iles
##ilight
##ilian
##ilton
##uros
moz
##vior
isle
online
why
while
meat
##eston
myanmar
nevis
##itive
##uten
##uther
playlists
shoo
sham
store
##iona
##ional
bean
##rad
##ray
wed
wedding
showst
andre
##amorando
##ote
##ots
##otho
##eds
##edia
poet
poke
##kee
##into
outlaw
##umber
##elt
scream
alley
##ayette
chu
chan
chop
chase
chand
chang
champ
##oli
##olk
liech
seas
ange
canada
canadian
songz
##stan
##stown
travell
aruba
spy
teddy
##ope
somalia
##irs
twilight
souvla
dem
dean
defin
rex
rey
rever
pear
peak
bras
bright
bride
bryan
brune
goiano
herze
animals
##oso
##osaur
##onde
serve
paper
maart
##phy
loy
##terey
contem
##aper
##apore
##ichi
barcel
blind
bluff
marine
indust
farm
farian
monster
money
monterey
##icket
truth
lear
leop
lewis
caled
caicos
sudden
cole
sav
save
##lard
eighteenth
noel
nova
prom
prim
prog
prima
##ugal
guam
guern
unpl
door
eleg
##acher
##erton
metalsuck
note
apoc
orche
rainstorm
rainbow
##ective
2005
2001
dinosaur
reserved
americana
enamorando
syste
synth
chem
greece
##achuset
windows
##moor
1990
1998
##hoff
crim
cruc
souls
decep
decade
escap
1976
1972
1952
1957
disney
morgan
gene
##asha
burke
burns
harris
quiero
11th
deathcore
brenda
magn
strict
strange
1984
sammy
nineteenth
##boy
##cluv
1965
antilles
diary
##lence
shel
paulinho
gray
hope
peters
13th
singles
singapore
turks
##gola
##govina
##otti
ready
pura
purple
##mpre
romania
early
iran
irma
cambo
mason
funky
lux
conspi
aftercluv
clear
hole
host
##ship
international
##olls
lights
between
berg
berry
bermuda
crab
crack
naomi
ultra
##lett
utah
winnie
finn
finland
hamilton
police
jackson
everywhere
everybody
portugal
shawn
ghosts
pract
mysterious
##aches
walker
instrumentals
assoc
famous
horror
society
boots
hype
jimmy
relief
woods
##gether
keys
presents
alternativ
sexy
selektor
princip
africa
favorites
connection
making
makers
##minator
##atorial
flame
chapter
russian
german
korean
luciano
wolf
##airs
liberty
univers
creole
jennie
sabbath
target
dorot
detective
funny
kirk
screened
denmark
lesotho
massachuset
training
fifteenth
astron
chamber
teenager
building
religion
argentina
glenn
jewish
techno
weekend
chicago
civil
congo
eternal
education
jennifer
leche
pirates
##ppet
##babwe
planet
dragons
bosnia
equatorial
lanka
pakistan
pulse
ranch
##tenstein
##water
##worth
moldova
research
health
roberto
malaysia
jacob
afghanistan
sweden
mcdonald
belgium
slovakia
honduras
houston
hillary
lloyd
olymp
siempre
salsa
tgif
zimbabwe
showstopper
pokemon
liechtenstein
angela
travelling
souvlaki
brunei
herzegovina
contemporary
barcelona
primavera
guernsey
unplugged
metalsucks
enamorandose
escapada
conspira
massachusetts
1st
2nd
35
36
31
34
42
47
59
55
51
6th
aire
aud
bus
bun
bog
bite
boug
bang
bible
blan
cad
cos
cord
cult
cuba
cello
dio
doom
diction
eag
egy
easy
fis
fle
fist
fles
fink
field
gor
gur
gus
gord
gio
glad
glor
hook
hate
had
hog
hain
hick
horn
hanna
homb
ira
jac
jud
ki
kit
kell
keen
lic
lil
lit
led
lag
log
linc
lane
lleg
larry
mim
mam
mood
mouse
mick
mess
mugh
mister
ner
nan
nim
nap
nick
nacao
och
oman
pi
py
pon
pit
pun
pag
ply
page
puc
pione
rw
ric
rim
rab
rip
rice
rio
rah
rats
race
rough
ruth
sit
sus
sot
sed
sint
sap
sna
slow
tor
tall
tort
tang
vas
vid
vik
wes
won
wit
wak
wide
wik
wise
wanna
witch
xian
xplor
yuk
zez
##lv
##lla
##llas
##ii
##iop
##var
##ev
##tchen
##nic
##nam
##nel
##nell
##sville
##oin
##ock
##ose
##ode
##obo
##obe
##oza
##ges
##gic
##ave
##act
##rar
##rial
##rible
##riend
##do
##cat
##cos
##cini
##pot
##pse
##pie
##pid
##pers
##phere
##pella
##hor
##har
##yon
##yne
##mit
##mort
##mary
##mous
##mouth
##uer
##uine
##bles
##bro
##bard
##bago
##kid
##fia
##folk
##friend
##zan
##zad
##jes
##jan
##jew
##hele
these
##ato
##atic
##atra
##ination
##inid
##oras
##esa
##esian
##lal
##lach
##lass
##isle
##isse
##isia
##argo
plague
todd
toast
together
ina
##leigh
##leine
##ret
##reme
##ouche
##oupe
##asant
##asia
##istr
thy
thin
thor
thron
##alie
##urt
##urch
moham
motion
##vian
##vide
iss
##ddle
##anta
mend
mead
memo
##eno
##estine
##inda
##itor
##itan
##itlin
##itzer
shin
ship
shah
stain
fries
beck
beth
bever
beard
beha
##racken
wend
##ills
##illo
##illips
##imo
##astic
##uster
##usions
##ecca
andorra
##etown
##aman
##amas
##igs
##otron
##edonia
italy
##umi
##uma
##eloupe
scor
scand
scient
alf
alive
alice
##union
##arson
cho
chance
chile
chann
change
##ably
##abeth
##oln
##olm
lie
send
seed
anat
anne
anarch
anony
angola
canyon
curious
curacao
##duct
##chart
starship
timor
timings
timeless
##ader
##adine
##adies
##ados
##adelic
##stin
##stra
##sters
trape
arms
army
sport
residence
teacher
##cep
##irn
##irth
##ido
twin
twink
twerk
among
amber
amore
##ift
heard
helena
repe
reunion
roger
bron
tunisia
190
##aka
listas
##osop
serge
paula
palace
maca
major
##phop
##roy
word
grove
grass
grunge
##ctic
##ctive
##ronow
##eroon
conduct
##aps
##apest
laf
laos
laure
joan
##berger
bliss
marx
marry
marina
marino
marily
phillips
watson
indep
indiet
##trait
monkey
clase
claud
chillin
chillout
##ishing
many
manor
manuel
tajik
cave
##new
suite
##zzy
cock
costa
comfort
upon
##ogram
workday
tenth
saw
sail
salad
sahara
##coy
care
cary
carlos
dale
noct
priv
program
creatures
guide
stew
unchart
doc
doing
##acion
boon
##itsch
walter
##erta
##ertown
latvia
norfolk
wilda
corr
johnston
##rence
elk
parag
parade
entre
entity
switzer
across
faith
fact
##iko
##ika
##ches
adobe
gretchen
##ivia
##itten
abd
abb
abdu
##moon
letters
1995
1994
crate
crime
crowd
prefer
decades
##quest
knowledge
mcgu
mccoy
hollow
yourself
gear
1978
1950
buff
bucc
morris
##atsa
genuine
burr
burger
harlem
##ize
##ization
emotron
quant
quest
##ucas
skies
skull
##brook
records
breed
bread
brave
eden
edna
maggie
gamer
gambia
provide
1985
1986
1983
1982
1987
deli
hello
mald
redemp
##board
verde
1960
1967
girlfriend
antoin
drake
landing
rivers
sheila
##ension
##haw
21st
graham
info
infusions
grandes
grandkid
electronow
petar
baking
mayotte
turk
virales
justin
jonathan
roman
platin
underground
##baij
martinique
background
##ileiro
##ological
15th
juan
##cake
##cairn
##aneer
##burgh
170
camargo
cameroon
belle
montre
england
espana
butter
captain
doughn
douglass
harding
palestine
survi
22nd
merry
mickey
madness
madison
stuart
lawrence
crossing
diggers
digital
##sylv
medic
medal
better
crazy
others
smart
small
smile
##lette
generation
salt
##valu
twelfth
finest
revived
roses
rosana
macedonia
sleeping
futuros
golden
santa
smoke
access
gluten
immort
kaori
praise
##ovo
##quez
franklin
philosop
benin
freak
horrible
hitch
rapid
soca
social
##ilable
##grass
rosemary
boost
domingo
hyun
hynes
##swana
angels
angeles
battlefield
25th
oliver
operation
portrait
treas
beaver
urb
##zeri
##alypse
barbara
barbados
clarke
historical
territ
terrible
sherlock
annivers
robertson
confessions
hunting
mirror
slim
slick
chapman
fourteenth
papers
swords
murder
slaughter
##etsu
mccracken
biography
campus
impo
lambert
madeleine
tuvalu
francis
maxim
both
botswana
daniel
evang
evans
ecology
hiphop
walls
##chaikov
gregory
mellowed
massive
self
victory
rebecca
indonesian
apartment
bhut
bahrain
bahamas
cowboy
cabin
dallas
gaslight
panama
rouge
wagon
experiment
dominican
dominica
religious
blast
dangles
economic
gardens
honeymoon
ambient
clayton
sacred
bossa
profession
landscape
railway
romantic
romantica
alexander
awful
circus
destiny
ethiop
flying
gangsta
honor
kosovo
kickass
lynn
puglia
rumba
sensation
##bourg
bedroom
chinese
legacy
hawaii
carpent
elephant
empire
beauty
gym
japanese
ribbon
trying
treatment
viajes
vampire
thailand
molly
challen
sebastian
armenia
revolution
lobster
tribute
lebanon
guadeloupe
stevens
expected
anthony
satanism
innocent
mongolia
azerbaij
bolivia
bottom
czech
cayman
couples
diann
dixon
differ
ireland
pennsylv
uganda
##craft
mozart
chanson
changes
brasileiro
maarten
learning
leopold
caledonia
progress
elegante
apocalypse
orchestra
system
deception
hostel
practice
association
alternativa
university
olympia
bougatsa
dictionary
eagle
egypt
flesh
hombres
logic
lincoln
llegando
pitcairn
puccini
rwanda
witness
xiang
xplorer
zeze
behavior
anarchy
anonymous
trapeo
twerkout
macao
marilyn
independ
indietronic
tajikistan
private
uncharted
buccaneer
redemption
antoinette
platinum
anniversary
##chaikovsky
azerbaijan
pennsylvania
37
38
49
41
53
5th
61
60s
ai
au
ale
aver
aven
aoy
bb
bing
bit
bum
bart
base
bag
breat
bish
bath
bust
bert
biss
bik
bud
boom
bash
born
blob
ce
cas
cind
cia
cove
cure
cath
core
cous
cott
cem
cierra
doo
dil
dim
dus
dun
dong
dres
dust
dire
dana
duch
denn
double
doodle
dunge
dvd
eve
eld
fill
fib
fool
fins
fash
gle
gill
gro
greek
ghet
hu
hun
hart
hub
hora
hugh
ib
ik
iyer
jade
jason
jigs
kj
kat
kin
kom
kate
kun
kay
kry
kip
kath
kha
kane
khan
knew
lj
lin
lars
lenn
ladies
moo
mck
mig
mum
mund
nil
nast
naur
nun
nina
nfl
nana
nuts
op
ou
odd
ochi
obama
obl
obs
phe
pin
poo
pas
pay
pad
pie
push
ry
rit
rol
rag
rak
rick
rust
rach
rud
rage
rome
rates
rita
ryan
sist
sic
sen
sut
sig
ske
sent
sia
sos
sond
sins
sank
sorrow
sara
seneg
tin
tast
tig
tab
tight
tib
tara
takes
ticket
troy
tchaikovsky
und
vt
vs
vy
vat
von
vand
vale
vinson
woo
wing
wand
wings
wade
wwe
wirth
xox
yu
yes
yan
yet
yang
yama
yosh
yester
za
zone
zomb
##lh
##lu
##lon
##lle
##lie
##lma
##lvia
##ias
##ien
##iled
##vana
##vanni
##ead
##eland
##emy
##tan
##tar
##tty
##nb
##nar
##non
##num
##ners
##nard
##nert
##nik
##nium
##she
##sou
##sett
##sables
##ovision
##off
##gh
##gen
##geria
##ax
##aw
##ala
##aal
##aco
##aac
##aica
##ault
##aughter
##rom
##rig
##rie
##rice
##rgy
##rors
##rane
##ridge
##di
##dge
##disco
##com
##ced
##cess
##cious
##cient
##cura
##cension
##pay
##ples
##pper
##path
##post
##hman
##war
##was
##wen
##west
##wak
##wang
##witt
##yy
##yec
##yang
##mb
##mate
##mus
##met
##mme
##mical
##uy
##uz
##uly
##uage
##uction
##bam
##bound
##kk
##kar
##ked
##5th
##fina
##face
##fonia
##zo
##zes
##zie
##zstan
##jand
##20
##hems
##hett
##hecer
theod
thelma
##athe
##atma
##atter
##ators
##atlantic
##iname
##inne
##inburgh
##orant
##oros
##esis
##escura
##lai
##last
##era
##erick
##erran
##anic
##anie
##arn
##aru
##arag
##arian
##arct
plain
ton
toke
tobago
invis
invest
inyec
playist
##onic
##onese
##lec
##leman
##leton
##leta
##rell
##rection
##ready
##rellas
##ingu
##vez
##veland
##veys
##asm
##ask
##aser
atlas
atlantic
##owfly
##owitsch
##ists
##iston
##istry
thack
those
##icated
##icip
##icide
##ilog
##ilty
##omon
##omen
##ombia
##alo
##aling
##aline
##alty
##alism
##uro
##urg
##urant
##urai
##urrection
mob
moth
##viar
##viron
isn
ish
isra
isab
islam
isaac
##ddaughter
##atema
##atepark
##atella
##anth
##antha
meets
meyer
##enix
##esto
##estas
myst
nephe
##iton
##ities
##itte
##itary
##itage
##itude
##itely
##utal
shar
shot
shir
shag
shak
shang
shann
stan
stere
stacy
fro
frescura
beg
bees
beer
bears
belo
weir
weap
##imi
shows
##nton
##cket
##usho
##eca
##ecution
##ete
##eto
##eta
##etan
##amin
##ambu
##igo
##igos
##oth
##otto
##otect
##edith
poland
##kel
outpost
ito
##umar
willy
willie
given
##ourt
restaurnt
restaurants
##elle
##elov
scene
along
alma
alph
almo
alta
allen
algeria
##unity
chy
chow
chart
chie
chain
church
##abo
wants
##ols
##oly
##olic
##olitan
sean
anoc
angle
ancient
canal
curse
curtain
##ineas
##chard
##child
##chang
schen
##thy
##thod
##ads
##adas
##adget
##adonese
##sten
##stairs
trac
tracy
ars
arc
spar
spect
spider
teh
tear
team
teens
##oph
##cend
##iah
##iev
wheel
##ides
twist
twice
##ages
##agne
##agues
##agascar
##ssible
calient
ami
amar
amir
amity
amanda
amigos
pleasant
souza
dev
deal
deana
demon
debor
##xter
##iful
##verde
hend
healy
hewitt
rema
reality
rewind
reels
rox
rogers
peaches
brat
brig
brun
brick
brutal
19th
gos
heritage
novelties
##oga
##ogen
listings
newport
newberg
##ians
##elli
##ells
##osphere
##onda
partners
pain
papa
pachang
mail
maple
maison
madden
##landa
coll
colour
colombia
lock
##rod
##roit
##rodu
worms
words
##ured
##erole
conan
contra
connie
conrey
concep
##apella
##ueo
##geance
##ipt
laine
laugh
joc
joh
job
joey
minor
##berry
warped
baro
barre
barry
##allica
blonde
blowfly
marit
margar
phunk
phineas
section
farming
monro
monty
monaco
claw
clapton
nationaal
troo
true
tratt
trower
trinid
trilog
mane
manadonese
yemen
lemon
leanne
league
tail
##tex
caitlin
caucas
loved
suit
suff
succ
suzuki
cox
coch
covers
complex
common
comics
ups
upstairs
##ibout
rocky
rockin
##orton
feast
femme
haunt
halal
sax
safe
sauc
saison
sauce
salade
##order
secondary
##cola
##cock
##larus
carm
carry
carne
carey
daugh
davy
daddy
##atham
nok
protect
##ugs
##uguay
trails
guys
guilty
guatema
steamp
uncle
unfin
publis
##mann
##mana
asia
ascension
boone
classified
javan
mila
mile
mira
miya
norway
apache
orchard
corinne
rainfor
##renaline
elmer
elli
##ouses
dinnert
aff
enter
swing
swiss
acapella
desire
enough
environ
synd
syria
sylvia
cheapest
countdown
##chester
admin
adrian
adrenaline
silence
chrome
##aching
##achary
##iales
todays
##ivo
##ival
starts
1992
tomb
tommie
crook
crus
cruel
natasha
natalie
prehist
pretty
decadas
##pensables
esenc
knows
mcla
dancehall
holt
hold
jungle
jamie
jamaica
1977
buzz
##undi
burning
burundi
harbor
harveys
emer
emil
emma
quo
skin
skatepark
##brian
##bridge
brew
brain
edit
edward
edinburgh
magical
wake
waff
waves
provid
1989
christina
delta
delisle
helden
12th
mali
malta
redux
1968
colleague
colleagues
##ought
anti
anthems
antarct
dias
died
landers
##lennium
##esemana
##enski
roads
roadrun
soon
gram
gradu
hoping
##ried
infern
grande
electros
kear
keith
peru
used
single
turbu
turtle
robinson
robbie
pursu
##ropolitan
##ancy
iii
jonny
rave
raven
16th
bonobo
fires
plath
feeling
babylon
acoustics
iris
occ
sonning
sonoras
talks
stephen
auto
author
jeremy
terra
##lerdisco
##uku
##ologist
##strong
donald
darkest
patty
patrol
pizzas
##caviar
deadly
##ificent
17th
belie
belize
bloody
engine
engadget
espanola
refugee
agent
baila
bajo
baxter
button
cappella
hardcore
suriname
trips
alan
cleveland
meredith
madagascar
mexican
stupid
digging
personal
ways
wayne
township
foreign
medical
bett
bluegrass
berlin
craw
djibout
navy
satire
wrong
writing
##beat
memory
breaks
crying
northeast
northeastern
radar
radical
##menco
fiestas
hammer
solos
thrash
polish
macc
everything
sleepy
puppet
puerta
russell
avant
military
millennium
sorted
fortune
devils
assass
assault
erin
freed
happen
moment
rapcaviar
##bbie
##joy
boogie
kyrgy
relish
##enced
friendesemana
angelo
26th
false
olga
operacion
vengeance
beau
chair
chavez
richardson
14th
lords
uruguay
select
selena
selections
legendary
community
princes
matrix
maker
matters
niue
niece
nigeria
pasta
sherri
stray
straight
stracci
brothers
confusion
electronics
flamenco
kok
miranda
mirrors
##embourg
metallica
metropolitan
##itches
chapel
bobcat
returns
europe
27th
mujer
murphy
rider
riders
wolves
liberia
liberalism
origins
collected
biosphere
grenada
jenifer
kenya
sinfonia
tarzan
voy
wilco
##boro
andrews
maxine
contin
control
detroit
ecological
estonia
estrellas
simon
taking
takah
##break
tourte
formby
myths
armand
armstrong
royal
soundscapes
comput
adams
gregori
charlotte
bandas
knife
mighty
reno
inside
shoe
shoes
polygon
prophe
jefferson
28th
astor
fatale
fantasy
fantasia
fantastic
fighting
fernand
hurley
hurts
krist
killing
route
racing
veget
yolanda
zenith
warriors
covered
coverage
episode
experience
stuffed
politics
bouvet
canta
canteen
cotton
cassie
casserole
extreme
fabri
garden
jesse
kurt
owen
ronnie
umbrian
transatlantic
railroad
mediterran
ahmad
dishwas
divine
floor
henry
kelly
kosher
nicarag
pillar
pigs
whisper
studies
studio
chasing
chasity
mahatma
granite
granddaughter
leonard
hawk
hawaiian
elephants
cupcake
crossroads
bettye
beautiful
available
damon
damned
dressing
giants
ghana
kamenski
nikola
nashville
picnic
selling
signed
tuscan
tarte
yauch
##afari
##azi
##bellum
frontier
phoenix
waterscapes
indiespensables
tropic
elizabeth
morocco
moroccan
michelle
episodi
episodes
axis
cuban
emoji
gwyne
ideas
laurie
language
municip
ruby
sardinian
sushis
trentino
vickie
wicked
places
meatball
andrea
chopin
champagne
definitely
reverie
pearl
industrial
savage
notebook
dinosaurs
synthpop
chemistry
magnificent
cambodia
luxembourg
berghoff
targeted
dorothy
astronomy
conspiracy
business
bunny
fleet
fields
gordon
giovanni
gloria
hannah
jacinto
message
mughlai
ochs
tango
yukon
##brody
throne
mohammad
issue
mendoza
meadow
memoirs
wendy
scorp
scientific
alfred
channel
sports
repeat
noctambu
stewart
document
paraguay
abbott
abdul
preferably
buffalo
burrito
quantum
maldives
montreal
butterfly
doughnuts
survival
medicine
rapids
urbano
territories
slaughterhouse
impossible
evangeline
bhutan
carpenter
independent
alejand
aoyama
breath
bishop
bissau
bikini
catholic
dunbrody
fibra
fashion
ghetto
kipelov
lennon
nastya
nauru
rollerdisco
rachael
sicilian
sondra
senegal
taste
tiger
tibetan
vatican
xoxo
yankee
yamazaki
yesterday
zombie
##rigue
theodore
tokelau
invisible
inyeccion
thacker
israel
nephew
shannon
beloved
almost
chieko
anochecer
amityville
deborah
remains
pachangueo
margaret
phunkadelic
trattoria
trinidad
caucasian
suffer
success
haunted
saucisse
daughters
protected
guatemala
steampunk
unfinished
javanese
rainforest
elliot
dinnertime
environment
esenciales
antarctica
roadrunner
electrosafari
pursuit
djibouti
kyrgyzstan
stracciatella
mujeres
mediterranean
dishwashing
nicaragua
kamenskih
gwynedd
municipal
noctambulo
29
39
33
54
58
72
74
78
99
aj
aur
avi
aus
aby
avis
action
aunt
aisha
aux
bt
bf
bis
bic
bom
bast
bars
bark
bree
bly
bond
bunk
bren
bull
borrow
bene
bisc
bump
bitch
bless
bso
bastian
benton
bitten
cd
cin
cist
cus
ced
cum
cun
cree
cell
cul
corm
ciss
cats
cuc
coven
celt
carson
ds
dat
das
dut
dies
dia
dco
dorm
duck
diver
dans
dome
diana
dena
dyn
dump
dune
dutch
danni
dolls
dhar
eu
eb
era
ech
ely
event
each
eef
ebi
elast
ealing
ecola
fo
fate
fim
fus
fel
fag
fame
fain
fier
fasc
fury
felic
fellow
fayette
fuku
gn
gat
gan
git
gather
gol
gad
gent
gia
gand
gap
goug
ginger
gift
hin
hast
het
hig
hul
hound
hass
hide
hess
hors
hocus
hager
hutch
hung
horton
iw
iz
iren
ivan
jing
jol
jag
jos
jain
jeth
jasm
kl
kw
kis
kre
kow
klo
kop
kase
kreat
kool
koug
kud
kors
kenn
kett
khed
klam
kaper
ler
lan
lal
lun
lith
lero
lap
less
lime
lora
lud
lans
link
lene
loma
linn
lolo
luther
lingu
mist
mase
mul
mound
mout
masc
milla
maki
mitch
messen
mcken
mouth
mesa
nas
nur
nit
num
nia
nos
nore
nio
nile
nips
nurs
number
nadine
ox
oj
oor
oas
ora
oth
oro
oath
osw
opa
ott
ozzy
pate
pill
pim
ped
pab
pia
pid
pame
pian
pero
pines
pester
pledge
rd
row
rie
rib
rug
rica
rans
rache
ryo
rope
rhett
sor
sop
sure
sul
sne
sval
tet
ted
tia
tian
tul
tide
tina
tues
tink
torn
tesh
tami
tatar
tiny
tables
tetsu
uf
uint
udu
une
uts
vin
vic
vill
vig
vent
vog
vue
vivi
vlad
wer
wis
wow
wather
went
wart
wid
wren
wern
witt
wann
woven
xiv
yar
yse
yog
yuse
yuki
yuna
zachary
##lou
##lest
##lit
##lim
##lles
##lton
##lings
##ih
##iest
##ius
##ike
##iers
##iology
##iences
##vo
##von
##vas
##vill
##vour
##vine
##vich
##vane
##vado
##vonia
##voy
##eh
##ela
##eck
##ever
##ebellum
##ti
##the
##tis
##too
##tic
##tive
##tch
##tro
##tron
##towa
##nut
##not
##nings
##nini
##sion
##sher
##say
##sol
##sburg
##sdale
##oi
##oe
##ob
##ois
##oil
##olas
##offee
##oval
##oft
##obel
##gate
##gra
##gill
##gam
##gth
##gul
##gues
##gins
##gesh
##gara
##gett
##aat
##ails
##rin
##rer
##rit
##rim
##rine
##rif
##rip
##rug
##rome
##rates
##rude
##rtle
##des
##dan
##ding
##dam
##dian
##dell
##dov
##dges
##cs
##cin
##cies
##city
##count
##cier
##cery
##cott
##cca
##cology
##czy
##cakes
##coming
##cross
##ciation
##colm
##xic
##xington
##pu
##ping
##pine
##part
##ply
##pain
##pac
##pool
##pines
##prise
##prus
##play
##paper
##hl
##hla
##hal
##high
##horn
##hula
##hsa
##houn
##hstan
##houses
##wo
##wall
##ware
##wberry
##yl
##ye
##yant
##yke
##yum
##yab
##yard
##yche
##yev
##mat
##mic
##med
##mour
##mun
##mier
##mother
##mbr
##mett
##uar
##uen
##uit
##uld
##uct
##uity
##uka
##uania
##uilla
##uesta
##ulos
##bz
##ben
##bit
##bun
##blo
##bir
##bain
##bby
##bust
##bez
##bler
##bison
##bnb
##ku
##kay
##kop
##kers
##kami
##fant
##fen
##flo
##fty
##fund
##zi
##zak
##zary
##zales
##ju
##jin
##jian
##jima
##jee
##jamin
##16
##48
##hea
##hex
##hew
##hens
thee
thera
theres
theology
##atan
##atch
##atley
##atures
##inen
##inery
##inese
##inations
##instein
##oris
##orow
##oric
##ored
##orms
##orado
##orova
##esco
##esky
##lak
##laus
##lake
##lair
##lawn
##erun
##erite
##erful
##erling
##erij
##ersson
##erminator
##ergic
##anj
##anus
##anorm
##aney
##anying
##isis
##isley
##islau
##isdale
##arus
##aries
##arna
plant
toi
toy
tof
toby
tome
toll
tobi
tooth
totowa
toxic
ines
inher
inter
inte
invent
inman
infl
incon
intimate
instin
playa
playls
fork
forth
forty
forward
##onimo
##lend
##lease
##lets
##lection
##lentown
##read
##reau
##oop
##oof
##oose
##oud
##ouc
##oula
##ouch
##ingy
##veig
##velo
##asons
##asburg
##asures
##asaki
##asional
atop
atomic
##owy
##istics
thro
thick
thief
thought
##ici
##icate
##ication
##icol
##icia
##icorn
##icleta
##ooks
##ilt
##ilis
##iling
##ilation
##illed
##ilma
##illas
##illett
##omas
##omits
##ommon
##omics
##alous
##uring
##urst
##urals
##ndrick
##ndleton
moor
moss
mode
molec
##vio
isley
ono
onion
onions
oncology
##ddon
whm
whist
whate
whitt
booked
##anto
##antz
##antis
##antil
##antom
##antown
addition
addicted
melan
meze
mezes
##ened
##enary
##engue
##enberger
##enzo
##esty
##esting
##estros
##estru
myself
myrtle
nee
neil
neur
neut
neid
nell
##itings
##itors
##itania
##uto
##utions
##utely
##utdown
##lists
shi
shol
shame
shore
shout
shades
shaki
shutdown
sto
sta
stle
stet
stub
stick
stren
stuck
stage
stans
stream
stella
stair
sterling
fris
fram
frag
frog
frio
fraz
friona
fraser
frantz
##hers
bee
bech
beating
betra
beeth
beij
beech
beef
beards
belarus
beware
##rae
##rable
##raev
##rahman
##illi
##ims
##imoto
showers
showtime
##ntag
##ntemp
##cks
##cking
##ckney
##ckett
##asters
##uss
##user
##usive
##eces
##ecue
andersson
##eter
##etil
##etian
##etery
##etaker
##ames
##amus
##ament
##amous
##iga
##igor
##igal
##igence
##igler
##otta
##otchi
##othes
##atherine
##edi
##edel
pocket
##kela
##kell
##keys
##kebox
outer
outly
outrun
##seen
##seley
its
itch
##ummy
##umann
willow
willows
restara
resturant
##ouro
##eling
##elda
##eliness
scen
scot
scho
scrat
scoop
alt
als
alla
alche
alison
also
alok
allard
alvar
allentown
##unn
##ays
##aylia
chat
chish
chuck
##abi
##abe
##aba
##abra
##abol
##abad
##abilly
##olt
##olin
##olla
##olis
##olon
##olition
##ollan
##olution
liver
liub
lips
lifet
lift
libre
liked
livonia
lidell
lihula
sear
seal
sequ
semen
seyche
seamus
ana
anch
anson
annie
analy
candy
canem
musto
muscle
##ongs
##onga
curl
curtis
##chw
##chy
##chon
##ching
##chig
##chman
schemer
forecase
forecasted
##lof
timer
timour
timbo
areas
arena
alba
albert
##ading
##adal
##aded
##stad
##stand
##stro
##style
##stello
##static
trad
traff
tramp
traitor
##arte
##artet
##artney
ari
arna
arlene
archer
arctic
ariston
spat
spent
spoon
spades
spinn
splend
resurrection
tei
tender
teeth
##opher
##opatra
##ceed
##iak
##iale
##iry
##irates
whether
wheatley
##idi
##idak
##agi
##agen
##agna
##agger
##agnini
##agotchi
##ighty
##ssom
cali
calhoun
amy
amott
amelia
ammun
soup
souven
dew
dek
dement
delan
deanna
demos
dewe
deersville
deacon
depot
debbie
##xton
##ifton
##ifico
##ifred
##ifesto
nearly
##vere
##vern
hex
hey
heap
heaney
heidi
reck
revis
reza
reason
release
reasons
roar
roel
roars
roby
rogue
rogues
peja
peyr
pearson
pepper
pendleton
bri
bran
brid
britt
brube
brief
tunnel
193
191
goa
goss
##male
##maker
hercu
hermann
putnam
##akoffee
##ogan
##ogoff
animo
animation
lists
##ellion
##elligence
##msday
files
filipp
seren
pack
paolo
palac
pavar
paisley
male
maher
mack
maha
maude
malaw
##pho
##phanie
looked
colt
colla
lois
lover
lohan
lodge
##rock
##roach
wore
artani
##uregard
grow
grant
grind
grows
griff
gratin
##ulish
##ulso
##rystown
##ctible
##venia
##tering
confl
conta
constr
convers
##ardo
##aparte
seeing
seeger
##iper
##ipers
##ipper
##ipedia
##ipouro
essays
lasts
##asso
##assa
##assen
lao
lac
lace
laid
lavina
joel
jody
joanna
parker
mina
minest
minami
##berley
##berman
closer
closed
ware
warp
bare
barze
bloom
blini
blvd
mare
maria
marie
mario
marche
margu
marlene
marria
married
phra
phish
phys
phinal
philly
phantom
phamous
index
indestru
secunder
farn
farr
farmer
fargo
faroe
monk
monte
monica
monsters
monkeys
##icks
clan
clara
claus
claude
##ekah
##isham
##ishment
tries
troll
trium
trisha
truly
trotto
manan
mania
manos
manual
mangesh
manifesto
yeah
leo
lea
least
leigh
leone
level
leeds
lexington
tails
tawak
cahn
caugh
caleigh
##vise
##visor
lovecraft
##nee
##neal
##neys
sukk
suicide
##zzles
##zzolla
coon
code
coff
cohen
cocker
cocos
colette
cobain
costello
comoros
upper
##ografia
hows
howard
##iba
##ibut
##ibia
##ibati
rockaway
rockabilly
working
##ortless
feather
feed
features
female
haq
haug
having
haiti
havana
haigler
sao
sala
sale
savi
safet
saddle
##ordin
##ording
##covado
##larie
##larney
eighty
101
105th
carg
cara
caron
carmen
carnot
carbun
caretaker
dah
daedel
##athouse
2010s
noor
noam
print
pros
prix
prime
privi
prison
prior
proof
proud
##uga
##ughn
##uggle
highlands
##owning
##dys
##demus
##de20
creativo
gucci
stef
steam
steel
stephanie
clone
clima
clothes
clifton
unre
unra
unite
unleas
unnat
unhol
unborn
unicorn
unseen
doi
doors
doyle
elena
elements
eletro
##acre
##ustar
public
##inavian
##mania
##manuel
asking
boat
boathouse
##eza
walsh
walden
metalcore
notes
jaula
mikami
norma
apes
appa
wildorado
orion
orange
orthod
orgul
orbison
##ahan
##ahoula
corcovado
raining
##eeney
located
johnnie
##renar
hassel
else
elma
elvis
elise
elrow
elba
elling
elsa
paranorm
valery
valverde
titanic
##ocrat
temp
temple
##anga
entire
entrenar
swan
swine
swamp
switch
swazi
swagger
sweeney
##ewolf
nets
network
acid
acres
acade
bald
ballet
ballach
balzary
balinese
descend
desantis
enid
enfield
enjoy
##issa
listening
chen
cheat
cheerful
fake
faust
faerun
county
countess
folly
##iki
##chee
##chet
##chez
##chess
adv
adm
greens
recover
recuer
siesta
sioux
##ivion
above
abby
abac
abrar
absol
##achi
offers
##ials
##ladesh
goof
letty
letha
leticia
##ivantha
starling
starlight
starcross
crist
crit
crush
crisis
crouch
native
natsu
prevent
premier
##uds
##udas
##ageddon
decod
##isey
##onscious
##panada
exp
expel
exiled
execution
##query
##attle
espen
mclean
mcgill
##tsville
danceflo
##ansen
holla
junyang
##rows
##rowave
##ressions
sixty
jami
1979
##wns
1955
1956
1953
buddy
dishes
concord
histo
morrison
##atsu
##atsch
##atsuki
##atsuma
genaro
genius
##insburg
##ashi
burgers
harald
harrison
harvest
harvey
humor
humour
##iza
##izen
##izons
##vale
##pend
emper
emirates
empanada
quiet
quarry
quartet
##uca
##ankar
moved
##ampton
skills
deaths
register
sympath
recordings
bret
edm
edith
magpie
mounted
wax
waits
##myra
##incourt
strip
strings
stranger
strogoff
struggle
lakeisha
flood
flats
gamble
process
proceed
##tail
##adeh
heartland
heartbreak
1980
christopher
symphonic
courts
samba
samurai
malt
malcolm
sanchez
folksy
whitebrook
croque
namibia
vera
vertex
1969
1963
halfway
anton
anthem
antebellum
division
diari
draisey
firehouse
marty
martine
martyn
drink
drowning
hillview
shell
##ensity
##ensored
roadhouse
soda
##hai
##olds
pauline
213
grab
grape
hopes
hiptron
oldfield
##psy
infantil
grandpar
baba
kebab
keeling
overton
overload
perf
perry
perform
petr
petit
petra
schuster
schuy
courtney
mayen
maynard
singing
singers
turkey
##uchi
##ances
aprite
mountainair
jono
raise
raices
reflection
163
bonn
bonnie
bonaparte
birch
handle
handel
handful
handover
plat
plut
plot
plpay
plkay
underwood
##raltar
##bai
feels
feelin
springtime
billion
billboard
irving
irwin
millions
missing
mission
sonata
sontha
sonntag
talking
streets
autry
llp
term
teresa
##stration
donut
donna
darker
jukebox
powerhouses
tyr
tyke
vanishing
##anee
childs
campan
camille
dakus
mask
masada
masks
##illacs
belles
belinda
belongs
marylou
agatsuma
agincourt
bake
balan
baumann
butt
caper
capital
capistr
caputo
dougan
endanger
funked
hardin
hardstyle
luke
lupe
palmer
retrowave
charming
charenton
anguilla
triple
afterlife
magician
alain
clem
clements
cleopatra
hola
hodges
idols
merr
mercy
merced
meriton
merengue
michele
madeline
madrug
gareth
garrison
lightning
medley
fairview
georgetown
georgiev
craving
julian
juliana
nazad
nazeri
smelt
satis
saturn
satanta
ultim
wrest
write
written
writings
##bee
##beck
##letta
memories
generations
breaking
breakers
battles
battista
dickson
marko
market
salmon
utop
utatsuki
winner
winning
winston
winifred
##menistan
glacier
hamel
hammett
hamasaki
solo
solomon
solitude
solveig
sandy
sanders
sandoval
##odowy
##hani
##hanna
reprodu
rosen
rosco
maclean
macmaster
guests
cuisines
michaelsen
sleeps
goldie
hallwood
passage
ports
santos
##aldine
shaw
shaolin
postman
broke
sweat
accident
according
skystone
ghostbust
baylor
castles
imogen
imelda
kaw
kahn
kazak
milk
ridd
fortress
frankie
airi
airbnb
austin
austria
benjamin
ernie
freight
freud
horizons
harkes
keren
karin
karina
karnat
losco
momy
mommy
sociology
socrates
##linger
##gros
connor
sweets
booze
domest
jem
jelena
jimmie
kyd
kyle
##swick
brooks
brookneal
angelita
catahoula
cherwell
downtemp
fallen
falcon
falmouth
kinda
keyboard
olive
operative
porch
porter
porcu
trek
tremont
venetian
##garia
beauregard
spirits
heavenly
23rd
eurovision
lunchtime
marsch
intense
intelligence
intensity
selection
britain
britpop
barberville
barbecue
clarice
legends
commit
commons
matter
mathem
matthew
nieces
rhymes
tsuk
tsipouro
treeful
todorova
moonlight
strawberry
annun
annette
brotherhood
newspaper
josefina
springside
electronica
casey
flag
koyan
koichi
ruiz
slut
silvia
##ijer
stonewood
really
##oshi
columbus
ashlee
journeyman
glassy
germ
geronimo
geraldine
ironing
jeanne
jeannie
lotus
muppet
murray
pickled
rides
riding
slap
slave
slang
smashers
wolseley
##chiwan
origa
mccready
mccartney
collecting
arab
aragon
bien
biddle
cyber
cycle
cyprus
cope
copper
campbell
daring
darlene
dancer
funtwo
iceland
impulso
impressions
lateef
lamb
lament
rolls
sinatra
sabah
valen
valarie
incident
##leges
melva
melba
melbour
francesco
fridays
scottish
maxwell
worthy
approach
danny
details
evolution
ecstatic
estres
estado
festoni
festival
fathers
faces
gateway
gateau
kirsten
kiribati
potter
potee
potato
sims
simple
taken
##iram
##bread
tourist
##asawa
mythology
screening
armageddon
clasica
supernat
compilation
driven
charleston
josephine
cameo
knock
lesley
linda
lindas
lindsay
renew
victor
victini
violet
##oleon
##guy
nevermore
shoals
bells
species
rebellion
rebekah
sundown
sundanese
prophet
propuesta
cowley
cabeza
dalles
fatone
fernando
gaspar
jared
jarvis
killers
limit
limits
panic
ringo
races
raciona
snare
slovenia
veg
vegan
wagner
##biography
wells
scarlet
chambers
mustard
rodney
rodrigue
sugarfoot
diamonds
broadrick
philippines
argentinian
bouchon
bassan
coti
danger
dangers
exterminator
economics
furler
furious
fabulos
gilbert
jesus
jesper
jewel
khal
lopeno
nuestros
ronald
technical
visit
vision
##voli
shops
staton
status
##losure
ambition
remembr
transform
sacrif
prediction
holidays
edgemoor
robots
robotics
retrovisor
studying
meditate
psychedelia
atticus
alexandra
ahbez
bullet
bullets
bulgaria
bernstein
banks
cities
citrus
citizen
cutta
circle
dolce
dolly
divor
etta
ethics
eternity
educational
henrie
kickbox
lorenzo
lonely
loneliness
labor
labyr
lynne
nicer
nicholas
nicole
nicodemus
nathaniel
odessa
pilgr
pugu
tamra
tamagotchi
velma
velzen
velvet
whispers
whitby
whitaker
candi
grounds
##ardsville
legion
leonville
hawkins
carpath
cliffs
organica
expressive
empires
softly
cupcakes
assignments
psychology
psychologist
adela
adele
based
cookie
egg
eguchi
ferry
ferret
giant
gypsy
hindus
ivory
kalica
kimberley
laying
mantler
manthan
mauriti
mauritania
otis
otse
powers
picasso
pelican
pelham
persian
ribbons
sirusho
sirivantha
sells
tape
tapes
zebra
##histicated
##force
##heads
tower
towers
##lenton
shinehead
shooting
frontiers
webber
scrolls
script
aliens
archive
dearest
phoe
indiespain
tropical
lebanese
guadagnini
uncommon
burnley
gamesrad
anthology
peacefulness
mongolian
ayumi
batman
banana
bleed
buckland
cubby
dreijer
effect
effortless
fuzzy
frederick
gonna
gonzales
gibraltar
hayes
hiromits
hirasawa
igor
jillian
jessica
joshua
killed
killarney
lenny
mineiro
morton
mortal
naray
narodowy
ozma
pipe
patti
pumping
soldier
sushi
tiler
testament
##iators
##iatric
shooter
shamrock
andreas
poetry
screams
chandra
chandler
seasons
spyforce
reyna
peaks
loyola
industry
savoy
promise
primitive
crimson
crucible
magnifico
shelter
shelley
cambodian
cracks
jacksonville
principe
principle
germany
wolfenberger
dorothea
kirkorow
eternally
conspiracies
aired
audra
audio
bogus
bangladesh
blanca
cadogan
cadillacs
cosby
culture
fisn
gorilla
gladiators
haines
iraq
kiara
keenan
ledoux
lagaylia
moody
nerding
napoleon
pyth
punishment
pagan
pioneer
pioneers
rimsky
rabbit
rahim
seduction
sappho
snake
torrey
tallinn
vasquez
vidar
viktor
wakarus
wikipedia
##jewna
##helemy
##lachian
##istrative
thornton
shinji
stained
beverly
beverley
scandalous
scandinavian
anatomy
twinkie
amorevoli
bronislau
sergei
lafayette
laurelh
claudine
manuelita
cocktail
corrina
elkie
switzerland
factbook
factory
mcguire
question
turkmenistan
romanian
finestre
immortal
immortals
philosophy
hitchcock
treasure
slimm
swordsman
lambertville
maximum
professionals
ethiopia
ethiopian
challenge
different
average
avenue
barthelemy
basement
boomtown
cinder
cousin
cemetery
doomsday
dillard
dusk
directions
ducha
dennis
dungeons
elder
fillmore
glenda
huanying
horace
kjetil
larsen
miguel
mundo
ouzeri
oblivion
phetra
pooh
ritmos
rustic
sisters
sentenced
vonstro
valent
wander
yesudas
yoshiki
##souraev
##mbouche
##attered
investig
ishq
isabella
mystara
sharlene
shirley
shaggy
shakur
shanghai
stereo
beggar
weird
weapon
##eteers
chymical
schenker
sparro
wheeler
caliente
device
demonstration
brigade
brunswick
gospel
maisonette
collins
concepcion
jocque
johansen
baroque
farmington
monroe
troopers
trilogy
tailor
cochrane
davydov
published
milagros
miracle
miyazaki
affair
syndrome
administrative
tombstone
crooked
crusher
prehistoric
holtville
brewing
edwards
waffles
providence
grammar
graduate
turbulent
occasional
autobiography
terrace
donaldson
believe
bettie
crawford
assassin
freedom
happened
princesas
strayhorn
voyage
takahito
computer
prophecy
fernandez
kristine
vegetarian
pillars
fleetwood
meadowood
scorpion
documentary
alejandro
aurora
abyss
avispa
bicicleta
barker
beneath
cistern
cedar
cellular
cormorant
cissy
cucumber
covenant
celtic
dschiwan
datil
dcode20
dharma
ebony
echo
events
elastic
fimd
fusil
fukuyama
gatlin
gathering
hastings
horses
hagerman
hungary
jingle
jethro
kisaki
kasey
kreator
kouglof
kudai
korsakoffee
khedive
klamath
lalonde
lithuania
leroi
lansford
lomax
masekela
moutsouraev
millay
nitollan
numbers
niagara
noreen
oxford
ooru
oasis
pillow
pablo
piazzolla
pamela
pianist
pesterminator
ribs
ransom
sophisticated
svalbard
tinker
tetsuya
uintah
udupi
utsler
ventura
vivian
werewolf
wisdom
wartime
wittig
yseult
yogurt
yusef
##kopf
##fundible
therapy
therese
tobias
inconfundible
instinct
playlsit
##illettes
molecular
whatever
melanch
neidich
nellie
shakira
stetson
stubborn
strength
frazier
beethoven
beijing
beardslee
outlying
restaraunt
allardt
alvarez
chisholm
liubi
lifetime
seychelles
anchor
traffic
spooning
spinnin
##idakis
ammunition
souvenirs
deweese
revisited
robyn
peyroux
pepperoni
brubeck
hercules
pavarotti
malawi
griffin
conflict
contact
conversations
barzelay
marguerite
marriage
physics
phinally
indestructible
secunderabad
triumph
trottole
mangeshkar
tawakoni
caught
sukkot
safety
carbuncle
daedelus
privileges
prisoner
climax
unleashed
unnaturals
unholy
appalachian
orthodox
orgullo
hasselhoff
ellington
paranormal
##ocratic
swaziland
academy
ballachulish
descendants
greensburg
recovery
recuerdo
absolutely
expelled
dancefloor
haraldstad
sympathy
processing
croquembouche
vertexguy
diarios
hiptronix
grandparents
schuyler
balance
capistrano
endangered
madrugando
reproductions
ghostbusters
kazakhstan
downtempo
porcupine
mathemat
koyanagi
melbourne
supernatural
gasparjan
racionais
rodriguez
fabulosos
remembrance
transformers
sacrifice
kickboxer
mauritius
gamesradar
hiromitsu
wakarusa
laurelhurst
vonstroke
dcode2016
nitollano
